1101001000100011
0000000000000000
0000000000000000
0000000000000000
0000000000000000
0011111000011001
1111111011000110
0000000000000000
0000000000000000
0000000000000000
0000000000000000
0000000000000000
0000000000000000
0000000000000000
0000000000000000
0000000000000000
0011001001110001
1111011100010011
0000000000000000
1100100000010100
1101101101100011
1101101000010010
0000000000000000
1100111111010011
0011011110111011
0000000000000000
0001111101100101
0000000000000000
1110011111010111
0000000000000000
0011011111001011
0000000000000000
0000000000000000
0011101111101011
1111111110101100
0000000000000000
0011000000100110
0011100000111100
1111111101101000
1111110001101110
1101111100110100
0000000000010100
0010001000001011
0000000000000000
0010010001011010
1110011101010101
0010101000100011
