0010001011001000
1101110110001010
1111100100011111
1111100110101101
1110111101111110
0000100011111101
1111111101101000
1111110111000010
1101110001010110
1101101011100000
1111001010001001
1101111000010101
1110010100010000
1111011111000010
1110110011000111
0000000000100001
0001011010110010
0000100010101010
1110010100111000
0000100101001000
0000101011001011
0000110000000000
0000000000010010
0001100101110101
1111101010011110
1111101000000011
1111100011110110
1111111111000110
0001001010010110
1111000110111000
0001011111111000
1111111110011001
1110110110101101
1110010000100010
1110100010111110
0000101111000100
1110011011111011
1111111111110100
1110011100000110
1110111101010011
1110001110110000
0000100010001000
0001000011101101
0001101111011110
1110100011001110
1110011011000001
0001010001010101
0001011011011001
0000001111001111
1110101000101110
1111011100000011
1110010111111110
1110110001101100
1111011100100011
1110111011001110
1111011111101001
0000101011101010
0000101001110110
0001010000101011
1111101011100111
0001010111000111
1110010100000100
0001100000110100
1111101011001001
0000010011100110
1111111101100011
0001100111011010
0001000011010110
1111010110110110
1111001011100100
0001100000110100
1111111011100101
1111110100100000
1111110000111011
1111011011001010
1110101101110000
1110010110001000
0001001110111000
0000010010100010
1110101000111010
1111010000110010
1111000000100101
0000001000101001
1111000001101010
1111011101110010
1111110011010011
0000110011001100
0000010010100000
1110111011011010
1111010001010010
1110001111001010
0000000100001100
1111010000110111
1111011010011100
1111010101000100
1110001100100100
1111010000001001
1110111001100101
0001011001000100
0001100001010101
1111001101100001
0001011100100101
1111011001101001
1111001011111010
1111111000100011
0000101001001100
1110010011101001
0000111011000000
0000011110110000
1111000001101100
1111001010100010
0000110100010101
0001000010100101
1110011111100101
1110010011100110
0001101001110011
1110110110101001
1111111010000011
1111110001111110
0001011001101100
0000000011010101
1111011011001111
1111000110100001
0000101001011111
0000010000011101
1110111011100000
1110011011101101
0001010110110101
0001011010000010
0000000000110111
1110101101011111
1110100100011001
0001101101010111
0001000110110101
1111111000100110
1111110100111100
1111011010000101
1110010111001001
1111110011001111
1110100101100111
0001000010110010
0001001011101000
1110101100110000
1110110010100110
1110111100110110
0001001101011101
0000000010101110
1111111001001010
0001000110101000
1111000001000000
0001100001110010
1111101110011000
0000110010111101
0000100010000101
1111001001100100
0000110100111010
0001001001011111
1110010001000100
0001101010000101
0001011000110100
0000011001001011
1110011011101001
0000011001001011
1111011100111011
0000000000000001
0000111011100000
0001100111000000
1111111010011000
1111010100011011
0000100011001111
0001110001111000
1110100110100111
0001011111011101
1111101110100111
0000001101100011
0000101110111011
0000100001010101
1111101101001000
1110110010011001
1110010001000101
1111001111110110
0000000001010101
0000000001001101
0001001000110001
0000000100000100
0001010110110010
0001001001010100
0000111001010110
1110001111110000
1111001110111000
0001101000110100
0000010011101110
1111001001111010
1111000000100000
1111110100011101
1111111111011100
0001010100101011
1111111101110111
1110101111100010
0000010111111100
1110111110100100
1111010001001000
0000001011110011
1110111101110010
0001100001001111
1110110101101010
1110010010100011
1111111100110111
0000001010010111
1111111101011010
0001010110011001
0001010100100010
1111011000011010
0001010101110111
1111001111010010
0001011010101111
1111011111001101
1110101000001101
0001101110111010
1111010010100101
0001010000111010
0000010110000111
0000101110111101
0000011100001100
1110010111001100
1111101010011110
1111010100011001
0000011110010111
0001000010001101
0000101100000110
0001000011100011
0001101010111101
0000001000101011
0000110100110011
0000000111011110
1110101110101100
1110111011011100
1111101101110100
1110011011100001
0000010001111000
0001000011001110
1110101000011100
0000011101001001
1111101110110001
0001101111011010
0001100110111100
1110100101010101
1111111101001000
0001010110001000
1111011100000001
0000000001001110
0001000011010001
0000110000101101
0001101111100001
0001110001100111
0010001011010010
1111000100001100
1110011011110110
0000100001000010
0000000101010001
1110100101001011
0001011100110001
0001000011100100
0000111011111001
1111000000110110
0000001000110111
1110101110001000
1111111100100010
1111010111111101
0001001110111011
1110110101101110
1110101010100011
0001101001101001
1111011101111000
1110100111111001
1110001111010101
0000100101100001
1111111000010110
1110010110101111
0000110011101001
1111011001000100
0001100011011010
0000010000100110
1110011100111111
1111010110011000
0001001010001000
0001011011110101
0000100101101010
1110110000110111
1111110101011111
1111011111000011
0000101000101011
1110010101110110
1110100110011011
0000101110100000
0000110011111100
0000110101100101
1110111110101010
1111111001101111
0001001000101101
1110110110100110
0000011010100010
0001100011011111
1111100100000010
1111111011011111
0001000101101111
1101111010011001
1111000111000100
0000011101101001
0000101000101100
0001000110011001
1111001011101100
1111111101011000
1110101000010111
1111011000000111
1101101011111000
1110100010011100
1111001011100111
0000000011111110
1111100011011011
1111110000101011
1101100011010001
1101101111101111
0001100100010110
1111000100111011
0001101010001010
1111111011111100
0000011010001110
1111011100110010
1111000011010101
0000111011011111
1111011010111011
0001110010001101
1111011000111101
0000001101101010
0001110010000010
1110111100101110
1111101000110100
1110010000100111
1111110101001010
0001000000101101
0001001010101011
0000101101001111
1111100000011001
1110101001010010
0001001000011001
0001100010111010
1110001101110001
1110010111001100
1110010111110111
1110111110111000
0001000111000011
0000100111101011
0000000100100001
1110011101010011
1110010101101100
0001011011010110
1111001100010010
0000010001100010
1111001101010101
1110110011000111
0001110010000111
1111000111011111
1111010010101010
1111001010011100
1110001101111001
1111100000110001
1111011101100101
1111000110100001
1110011110011111
0000111100101000
1111011001001111
1111011110011100
1111000111111011
1111110100100000
0010010011010011
1110100001101000
1110110011010000
0011000001000010
1111011110011111
1110101011100011
0000000001111000
0000111011111010
1111000000000000
0000011011010010
1111100101110011
0001101010111100
0010001111000111
1111011001111000
0000011110000111
1110011101000111
1110110110111110
0000011010010010
1110011000110110
0000111001100011
1111010000010011
0001000100001101
1111110011110000
1110100011101111
0001010111111100
0001001010010111
0000110001000110
1111001011100001
1110111011100000
1111101010101111
0010101010001010
0001010101010010
0000111000110110
0011101010100001
0000001010010100
0000001001101101
0001101011011010
0010100101101010
0000011011100110
0000100011101111
1111111011000110
0111101100101110
0010010010100010
1110110101100101
0001110010010000
1110110101010011
1111011001101111
1111000111100100
0000001111100000
1111011100101110
0000000011001101
1110100010110111
0000011101011010
0001100111101010
0001010010000011
1111010011111001
1111010011000010
0001011111001000
1111110010100111
0000010011110101
1111011000101011
1110100000100110
1111101001000010
0000011011010111
1111110000010000
1110100101111110
1111110010011100
0000010010001010
0000101010101011
0001000000111001
0001011001000011
0001001000000100
0000011001010110
1110011001010001
0000110111101000
0000101000010110
0000110011111001
1111110001000011
0001010100111100
1110110010111011
1111000011110111
0001001000110110
0001000111111100
0000101110011001
0001010000001110
0000101011011001
1111010000100101
0001000010000110
0001001010101111
1111101100011010
1111001110010001
0100110001101001
0000010111101011
0000011100111000
0010010000110100
1111100001011111
1100110010010110
0100010101101001
1111100000101110
1101110000110011
0001111101001100
0000001001001011
1101111001101100
0011110110101000
1111101110110011
0011011111010101
1111001000110110
1110111100111111
1111001110001011
1101111001111101
0010100011100000
1110000101000101
0001001000110010
0011111100100100
1110001100011111
0001110010001001
0000010100010000
1110111011110100
1111001000010011
0001010011111100
